daddb7be
0ea7f7bd
5b0425bd
defd16be
b2fe7fbe
389989be
d4b292bd
7d2201be
6d3d1ebe
71217bbb
dd311c3e
e660c33d
330eb4bd
c06b0cbd
0d8e9f3e
df0411bc
190b843e
5b5f773e
6c29c83d
125df7bc
160b243e
815a1dbc
3bcb9f3e
8414913e
7270e1be
c4f9723c
166adfbd
307faebc
d63e70bc
0f78043e
c24597be
ed5a78be
191f15be
fe85c9bd
eada96bd
50f94bbd
d9fad9bd
dfdcea3d
77af3c3d
cb6f3a3d
fc3aa03d
f7a3563d
