355e65be
41ec003e
c536263e
95841cbe
c7b73d3d
b222073e
13ecaf3d
9c8ffabc
fc23193e
3a370c3d
c558dbbc
54321f3e
4cc0cb3d
8535df3d
5eaca43c
e6b0fe3c
a1fcf4bd
ec1c263d
5a1da8bb
9e671d3e
334f273d
e0564d3e
4f734d3d
55da093d
2230e23c
282d8a3b
6732853e
c20bcd3c
e450f23c
5459a8bd
debad6bd
25ae473e
d8b6223e
055e2cbd
4c0b9dbc
f0aa4d3c
e03fb4bd
2ae6ffbd
cf8f2bbe
1f21a13c
5f4265be
030b79be
75de113e
6bc3233e
c03dd13d
499844be
6a747dbd
35ad413e
f9a4edbb
1bfc1ebd
a4ce1fbe
d2f23fbe
4a37d1bb
4bb383bc
2a2c3fbe
c256dabd
c4ee9fbb
f554323d
be2ec83d
38d5bebd
5863fc3c
f87a383d
ba4b893d
a82d793e
cd33b0bd
723437bb
78873ebe
0ac06abd
acd4873c
1f277cbd
6feab9bd
1889873c
2f82373b
068e393e
489e153e
b43d43be
ae128f3d
edbc183e
865f4a3e
e10d27bd
31ec8b3d
d7ebb33d
d027c3bb
1102db3d
0ec5c0bd
ec0d6abd
4f3d58bd
d22380be
670bc4bd
2951debd
1cf3b1bd
95ec4f3d
4d34c03d
96a0f3bc
785b733e
6cbb863c
f595993d
d02d1b3e
31c5393e
c6d9f73b
92a44ebd
26d788bc
499b43bd
bc3be3bc
b6fa3b3e
f025393e
eafcc93d
f874913d
091d143e
300f063e
4f48a2bc
0c56073e
d3683c3e
48893c3e
02e41dbd
d95120be
25ba13bd
5d57063e
27db3d3d
7522f43d
acba173e
e102133e
234a2a3e
bbd80bbd
a542003d
1b2fc3bc
1ffeb8be
983e6cbe
25cb96bd
324609be
cb19cfbb
3cfce23d
843bef3d
b4c7c23b
346b5abe
27ee8f3d
f81e8abd
cdde2fbe
d3d70cbe
7639fcbc
be35af3d
f2aa743e
978f8f3c
cf4b493e
ef60533e
69e1513d
16fe4b3e
55b23b3c
eb12de3d
a240443e
b2b7413e
5e044b3d
f120c13d
aa908bbd
bdb3d83d
cd304cba
2862543e
bb7dfa3b
c363fd3d
15236dbe
3b54aebd
564e543e
e321abbd
e00b2ebe
f32b25be
d1a3e33d
5fd0c43e
e4be483e
d6cea43e
a229b83e
f075ccbc
5777113e
21001b3e
bd9108be
8bb34abe
690c893d
d271d8bd
3867d93b
0b44133b
4d88a83d
5c24b33e
1573733e
74f0e83d
6fc4533c
85dd0cbe
afe15e3e
f8b51b3e
378b703e
d44bc8bc
c1b644bd
306bc5bd
10a9503d
b48d16bd
fbea22be
0fe8593d
c3b41f3e
daa0383e
0509963d
9c8be63d
fbfe84be
98dd1ebe
f13a96bd
719620bc
9f7cd8bd
31adc03d
280463be
b5e070be
9435623a
f19c0ebe
077b21bd
f768953d
c14b5dbd
f8e0553d
51786ebd
a82f023e
ff3ce2bc
4592543e
e8f53f3e
df6b39bb
607acebd
c31c133d
095b0cbc
46b2dabe
2533a6be
c1f8043e
91e4953d
f20e243e
a4a1ff3d
2c19b1bd
bdbb09bc
706e8e3e
721d0c3e
4c91cbbe
07bd5b3e
7b5c3a3d
7150d8bb
4f3690be
f193ce3d
30d9683d
320979bd
a4aa4f3e
1feb3e3d
695922be
1b5dcebd
0bab1dbe
82d2d33d
5d64c9bd
01f4db3d
d55aea3d
323f363c
6598543d
a2f695bc
b55398bd
14408dbc
8e67ba3a
8a4da33d
3193e23d
60fdd7bc
8190d73c
1cc3643e
f6da803e
2706783c
6a1a24be
0708913d
2f0eb4bc
5f19443e
cb2a873c
a3be6f3e
0b4be43c
fe9a86bc
2d895d3e
c3a57a3d
50a217be
b30be83d
8292e83d
97d0723e
0e16303e
b98ec73d
9b0404be
688a84be
8fc59abe
8b989b3c
8a19093d
a67f86bd
050f48be
286588bc
81f3f93d
e712ecbd
c7f135be
2f2b74be
1b1b1ebd
0bca9e3c
489f403d
c376b8bd
d216a43e
1ac1cfbd
07818dbd
d32976bc
4204713d
91f7bc3d
19f915be
13afafbd
98bf28be
3c7af73e
7cdaff3e
9d5d04bd
c13a21bd
10de0d3e
f01c2f3e
9616b03e
5b18a4be
af9acabd
500d283e
310e9e3d
695139be
2b78dfbc
8b29d9bd
3949d2bc
ac86c13d
cc08443a
0605573d
f93aba3d
2f239b3d
036592bd
a937b6bd
730d8a3a
6c5c86be
75e6c6bd
33b600bd
f988bb3d
245445be
1a111dbe
d104fe3c
375427be
eb73c2be
4f0c3bbe
781c57be
5a82953d
d6be2a3d
603dc2be
e9477dbe
3d17e33d
c15fa03d
f5aedcba
5944383d
6645693d
1bac81bd
03f99bbb
4d63df3d
aab22d3e
8ffef13d
882d543e
126f573e
0ec6883d
db12173e
a678413e
a3860e3e
fe398cbc
4d4d49bd
11dc35be
4d193d3d
126a833d
f921333e
bf92cf3d
56bbbc3d
f38f1b3e
80f9fe3d
0732593e
93be023e
4760563e
20b6aa3d
ea4a49bb
f3a3ab3b
03c30dbe
ae5bcdbd
be157abc
b0460e3e
80f7fe3d
24c6843e
2acf863c
47861ebe
2a35883c
14fa6fbe
4a7800bf
20cd8abe
1199fdbd
8d28093e
994b0bbe
6ced66be
3738783d
ee9a993d
340e973d
407d3cbe
2ae77ebe
87805d3e
438fa03d
85791ebe
c7f879be
28eb7f3c
d52b03bd
5abcdabd
901909be
44680fbe
d9801bbe
e68ed9bc
d518343e
85bf0dbe
20780cbe
740be3bd
3f9d72bd
a301043e
59bfc6bd
7987b7bd
1ae2a63d
97b4e23b
ef0e86bd
964f04bd
5d4330be
dbab53be
bf638b3d
2008c5bd
d774c03d
be281d3d
36f8833d
b1c85bbc
d31e78bd
4d3fb3bd
61d1f13c
ea410abe
0f938e3d
5fa04e3e
ca6294bb
8e2505be
84225d3d
268a8d3d
32af543e
f194be3d
cc92eabd
fc1d1fbe
fd25dfbd
0a76613d
dd0547bd
2820913d
bf41b8bc
18e711bd
b36822be
58c716be
7ef709be
23af7ebe
d897c3bd
fb25243a
e6f74d3c
27a64f3e
ee8ec9bd
c707383e
b92cd33d
04191e3e
7dc08abb
eb7279be
4bc605be
d7149a3e
99c6fe3c
73fc3ebd
be1ae23d
aada103d
29cd13bd
f04b2d3d
d6a8683e
eb96a03d
9fe5f9bc
7dba203e
16b04b3e
046e5c3e
a5aa643e
9bd50c3e
58c3f9bd
f7b9173d
a573e6bb
dd41053c
639a7a3e
