88f5153e
40d481bc
55d1503c
362102be
1af2f23d
22726cbe
4497153d
bfe50d3e
ac08313e
aef5893d
5d30c43d
38e3243e
8d39debc
0e59b1bd
be872abe
e32b743e
05760d3e
9712403e
12f6003e
fb1f8a3d
b9ba183e
a0af7dbd
1ed183bd
6299453d
f2304f3e
2d7d563e
cb6e1d3e
41a33b3d
1c75b33d
f7bbb9bd
64c4973d
3e355c3d
188544be
2e5917ba
4f53653c
8a13853d
aae64bbd
463e233e
ddc7ed3c
ec921e3d
3b3622be
e95bc6bd
09ceb5ba
06cc343d
bd93ff3d
5961e63d
b874b5bc
1e52ffbd
52d86ebe
e5c2c2bc
5fb9e5bd
fe53243e
178b443e
c3167a3d
820dfebd
d428bebc
227ed33d
186f033e
2d2d8cbe
af778b3d
573be93d
2ca56a3e
3bd3073e
b300a73d
6893923d
203228bd
5f6f25be
56464fbe
3bfe0f3d
c810723e
479f98bd
d2d8ef3d
dd40a73c
be1f563d
26538dbe
b83a123e
ffe5ae3d
63e0a83e
6c49283e
fb58c13d
66661d3e
e67ca0be
49cd84be
4d5db0bd
580bcbbe
377f4ebe
7cca28be
36ccfc3d
922b6a3e
d3e486be
bc0002be
5e6c38be
9c2e68be
d2f45fbe
364603be
f57c0a3d
e2a4e5bb
169b87be
b6222cbd
5c8b3f3e
ed358e3e
8a7340be
beb2c0bd
f7249abd
bf6639be
34b64bbf
87706e3c
4162853d
b455833d
db76a93d
5c7a52bd
3ae617be
ec7e933d
f527803d
d275873d
626118be
c4ed08bd
a35f75bd
b14359bc
cd28f1bd
86cc2cbe
961c3b3d
d9b4b53b
f17891bd
4d2b0b3d
60b0fabc
08f2d7bd
933de4bc
593824be
2b940abc
f010ff3d
3085223d
8d62c3bd
a4040cbd
532efdbd
09700b3e
a35f37be
9983b4bc
80cba73d
a030b23c
80a04bbc
526c07be
dbee1fbe
2614fc3d
a26d873d
b04f02bd
21bfc43d
d7e4283e
1505c13d
6be3433d
e049edbd
981ee63d
218089bd
d123f93d
60a0d13c
e850cdbd
e384b23e
668615bd
131c733d
0f59d33c
10ad363e
6d902abe
55138b3e
6acc5c3d
958a203d
29699abe
4a94a3bd
428eca3c
6d0e10bd
4a3048be
9742c63d
b93d983d
130d063e
82b84e3e
561462bd
0fe66a3e
e95ae63c
f759803b
5efb3dbe
85cc06bd
1cdb9f3c
661d88bd
ee0d95bc
c5c38abe
efb529be
2f5a973c
c28d5a3d
f626123e
b5b20fbe
5794d13d
4dc5013e
339c0f3e
d757b13d
f4e7ca3d
7aed5dbe
99d4c23d
2701eb3d
b53d163e
95d4733e
7c8299bd
79ad3fbe
daa0cdbd
6412243c
bf389dbd
f80c193b
2664c7bd
c46f813d
a82e203e
6a36123e
3107133e
f710e03d
ffe97cbe
8f919abe
4245153e
38fff23d
3d4f5f3d
31ec04be
0214663d
8fc0383e
e66a3e3e
25be2d3e
ab12e93d
a211f2bd
f3420cbd
db375dbd
80799fbe
a3135bbe
b18ceb3d
b7168abd
9187b9bd
09ad9d3e
834f803e
578e243e
45e0423e
1df5a1bd
cffdccbd
c2aba53d
75d91bbf
c6deb93e
3e9ca83e
89f2e13c
3913743c
3e0b83be
19ce933e
1e4d653e
a727c2bc
3449113e
9182183e
fcd3a93d
67e5a8be
5d483dbe
1585703d
bb1185be
e291853d
c479adbc
ecd94a3e
70f3e53c
1dd341be
cf82b2bd
8e5e62bd
3da0de3c
1d444fbe
b578463e
ba3d003d
fa21d3bd
94b6de3d
e84d4cba
e27a733c
859836bf
0dbe8fbd
ea190fbd
d046dfbd
99c615be
754a45be
7924ebbd
44af0d3e
245b93bd
8722f53d
2b4e2d3e
029cb8bc
6854fdbe
7effa3be
acf2a9bd
861040be
6bf3523d
d1ff983d
2c8d403e
44f8813d
