37fd6ebe
5324383e
8e275a3e
627707be
74db663d
366ac53c
6145743e
252a963d
2dfea13d
3ce894be
3834673e
cbd9b43e
64bbae3e
1225653e
8b593ebe
1721423e
1a5e85be
c872e23c
24cd64be
f643e6be
badd9cbe
c63d84bd
e8a5423e
0d1554be
0b1a78be
0ef3e2bd
9a06c33d
6bb2bcbd
0d5902bf
429880be
ad553cbe
85ff473e
c34bf1bd
f1a1a2bd
1af20e3e
9d7677be
36bb34bd
b0994abc
d910663e
b67d993d
09290abe
d0aacebd
a0731b3e
0e78853d
06c42b3d
2f842dbe
6f5e88be
ec5b0cbd
b34417be
9718a23e
c936353d
ce2bc03d
3754703e
8b6b2b3e
fe73583e
b4dddc3d
448e7ebe
8609bf3d
dda44ebe
f287b73e
42795ebe
aae2583e
38e64c3d
d0c9173d
8445cebd
925b1abe
f777b8be
9baeadbd
94eb193d
16ba653e
7780873d
431a85be
5e796e3c
45a6843e
0c184bbe
fbd517be
81f1273e
0a1a993d
f4571dbe
bfea1fbe
45fff8be
562d763e
08901a3e
d7c488be
77c9323e
22f44e3e
aab63e3e
dabe223e
e4b1e43d
4179fbbd
7e43073e
64dd663e
181bbfbd
2fcc403e
05dc1d3c
647ec4be
c947e0be
3603b2be
97cdc1be
a71d953e
06c459bd
9c2b263d
ac8c933e
c7740cbd
66fa453e
b01584be
884bcbbc
c45524bd
0da0923e
27875e3e
b471843e
39208cbe
0149f5bd
d4347ebd
0c34cb3d
0978fa3c
2685b5bd
77ffc23e
79cae83d
a1f0a23e
