cae020bd
dd761ebe
38a2d5bd
7080a73d
9a4f1e3e
fa77983d
a2c95c3d
6b284d3e
9bba3fbe
6da6833c
7fbf0e3c
fd1d14be
1dd749bb
2f1ba3bc
f9b612be
cd14263a
7751333c
57206cbe
a74406be
e52d913e
caa87c3e
3538053e
750f223d
4b7b043e
54ce39be
54cfc8bc
77068f3d
bc7494be
052426bb
1db28ebd
faae92bd
925a95bd
78efa9bd
5c13393e
c90f8b3c
4c9663be
0ab662bc
487b34be
12c1c63d
d96b18bd
e0adb8bd
d131abbe
29b21f3d
0ea93ebe
63de863c
4d96243e
a8e1323e
53e7febd
0ae72cbe
861bdfbd
035683be
afd12b3d
d54b09ba
3f0f2dbd
8bd5593e
d9d201bc
d223233e
da1729bd
9ddcf0bc
49bbaa3d
56a0a43e
2fb9f03d
56fe51be
7165113e
70c35abc
6e9270bd
6adf493d
744c003e
69630e3e
1fd0153e
d84824be
1da5233e
0d5e90bd
0d4b0bbd
838f083e
1d175a3e
aa39563e
5c43f33d
1ece573e
ab00a3be
b64639be
0b26223d
857927bc
25ea0dbc
665d483d
bff0133e
b880f53d
e7800ebe
ae04a93d
b3641f3e
3b890abe
c2754abe
95b7813c
762c02be
d91895bd
be66ccbd
b1dc91be
45b483be
adce53be
9d0422be
6c8284bd
9487333e
2107f83d
c26b0b3d
8cf716bd
e7d794bd
9f5c7b3d
611c68be
723e473d
fa40dfbd
5694453e
280ed2bc
37f9b93c
96e0f73d
ca6b653e
798d193e
82f787bc
e8b9133e
f57b4ebe
fe895abe
acfc6fbd
755b953d
ad28203e
7e559ebc
997e15bd
07514dbe
5edb13be
9acbcd3d
786f3e3e
f3d77dbd
93bf073e
b316c9bd
e4e657be
27b45f3e
2e22e23d
eeb642be
d6c51d3e
1af441be
590d303e
6228e6bc
04a9573e
edc1113e
656e2abd
82eddb3d
3e4d3abd
a8500f3e
f6ef88be
7831933d
376e90bd
c701d23d
46b2343e
45d41b3e
623369bd
1f28373e
9702883d
f6401b3e
1c23123d
76a41d3d
60741e3e
87910e3e
07ec793d
24031ebd
7d50623e
15169ebd
3c9d16bd
a2c72a3d
337fdebc
86d3a4bb
513f033e
fd08103d
a9555a3e
40fd1e3e
35ac4fbd
b34c75bd
2ad717be
9a4aa9be
dded243e
7610433d
a2c1aebd
8adefb3c
fe292cbe
06ee0f3d
241fd8bd
4722943d
fb4f273d
9af5823e
8b84e9bc
e408cbbd
07118bbd
f3e8693d
8a5a11be
6f53d8bd
878200bc
626a783d
a4fc3e3e
1c226e3b
0d7dba3c
530a0c3e
082c23be
75f0873c
cfa4253c
1c1e01bd
f121843e
c6427dbe
cee5f9bd
d35b07be
bcb1883d
a47c01be
e21abcbd
73e9513d
f8d5b23a
295608bd
98e4963b
a09dd7bd
ce0b45be
845f63be
6e1fb6bc
260ed03c
1a1dfebc
846d8b3e
a80fe13d
a7d8273e
b4e15dbe
b2f6923d
ea45663e
3bceb8bb
d7616cbd
8a8884bd
b260ad3d
37f1653e
cb7371bd
29702ebd
eedd4c3a
20c3eebd
00f7af3d
c8f34c3e
1aeb49be
5474c43c
a8f743bd
a6832d3e
4cb8113e
0fb2533e
888abfbd
6fce2a3e
95c3b8bd
de2dcbbd
01be4d3e
5311d3bd
9e405dbd
c71ae43b
ba83d63d
d0cfe6bc
d6614e3e
4bff323e
6a2d783d
8995efbc
f50bd7bd
978e3f3e
8c20eabd
056eaf3c
8b2ea73e
d8de34bd
ec490abe
cd48063e
b87a093e
cfe293bc
1d87bbbc
c57a263e
cb1650ba
89632f3e
d6c659bd
850650bd
cb80583e
811a783d
1b6f093e
9b383d3e
a568b7bd
e9eab6bc
f173523c
4f3b25bb
e9e0f4bd
4df6f23d
c2a12fbe
f3980d3e
8f033bbe
ecc3d23d
ecca083e
4c70e53e
3f454dbe
35301cbe
6358d83d
d180eb3c
b37099bd
f04abd3d
068a88be
9dbe4e3d
b034c83d
675818be
e0db5bbe
40e5a53d
d804da3d
19435b3e
75f0243c
8cc1153e
86c029be
9b9391bd
d157433d
d83c5a3b
9aecadbd
511bf0bd
59160bbd
16cc94bd
582f9d3d
211d203c
6e664c3e
88d4a43d
6f9664bd
f6b93a3e
14bde23d
deac2a3e
9cefb83d
ccc311be
be99123e
d71c9f3d
4868913c
ed5d94bd
35c0f2bd
b49c27be
e8936c3b
b4645c3d
dd24c33d
c4d931bd
6651ff3d
1023553d
507164be
f61a9cbb
4d5d6d3e
855c07be
3b2eccbd
8968f43d
893db63c
39fb093e
25f133bf
484142be
a7de9e3e
98b82e3e
bde4ad3d
6c70953c
b91ea73d
61abc2bd
7a3feabc
70919f3c
8897413e
49d4553e
beeb833d
cc2a913d
5712033e
ec39483d
2a4c55bc
d63315bf
634e95bd
a9881bbe
56d8e2bc
6d5ea13d
67fbe73c
930a4fbd
8f623bbd
a019febd
1fd8cfbd
83b02c3e
d39f9c3e
7ea1dc3d
5729ffbd
828d3239
ebfdae3d
48d35b3d
25950a3d
b2d941be
1c050dbd
dd70373d
344da0bd
f4ad5bbd
a4a28ebe
24973b3d
400844be
84edecbb
4c6e333e
0cbc083d
5d6d02be
03e80e3e
716ffb3c
93f3143e
86dd433c
e9c2ac3d
3d890a3d
24e6cf3d
9723fcbd
6014b4bc
24fdf2bb
aa23ef3d
a10f68be
76abdabd
547cd63d
d4ded6bd
229bb63d
6fe7aebd
4d360bbe
8ea7293d
6fb674be
6cbac9bc
0cda8dbd
3ca52b3e
96121bbe
c713dcbd
1c04843c
07ffe53d
bfd6a0bd
10a2093e
950759be
a28c66bc
3205513d
e8634a3e
f873553c
80b436bd
d9df263d
b7298b3d
208a9fbd
969766bd
0d2fb3bd
7230f03c
a056c63d
3479283e
89be96bc
1c93e1bd
fa23e3bd
348e493e
0a653b3d
3ce63c3e
549b42bc
e2f723be
b38196be
2adeb4bc
24750abe
f5037ebc
2ce53bbd
08245f3d
43893a3e
776af9bc
124bfb3c
83d9873e
af31783e
e9a8c93c
e86df43d
5ccf293e
d8b71abe
1e2eb7bc
50492fbc
6f3722be
599fe7bc
864f0e3e
777206be
e1661ebe
c0b193bd
135ae2bd
3caf6f3e
949c8d3d
0947443e
523757be
0916a73d
25c94f3e
d25de1bd
9e28e4bc
e730db3d
0bd37bbd
3b29ae3d
474095bd
f2741abe
cd412ebe
73efdcbc
b33ac73d
f6a8303e
42f5983d
7879a03d
f23a633e
184ba93d
ed79943d
ed28d4bb
614a0ebe
ae775bbc
2d86d93d
016737be
6009dd3d
be09f1bd
c81357be
57ef35be
5d1e7e3c
77e2123e
c669e8bd
f92d673e
ecb12abd
ece463be
a61a86bd
c4edce3d
2e1289be
a5ed8d3d
9535033e
f454413e
8a02a53d
92dc613c
55a82f3e
25b3dfbd
edc2383e
1a6ea73c
7a141d3e
404bb3bb
74ccbc3d
8c5fbabd
acf4273e
d66d29be
911064bd
62276fbd
d6595b3e
272b0abe
51dbcc3c
fc3c083e
ec66c93c
0033bcbc
f7910ebe
84a4953d
f0febebd
15359a3b
f7667ebb
3263a9bd
500106bd
ea7d973c
34bd15be
637e18be
c929f53c
752c1d3e
66eeea3d
9679dcbd
4d8c3e3e
5a08c3ba
0cc2dc3d
a8f1db3d
82c8cc3d
93be4ebd
93c4c73d
1b659b3d
649e1bbe
8b3d3ebe
915c273d
df8e743d
f6c10c3e
326bafbd
e08e31be
2b87a1bd
8ea899bd
51553dbc
6f9aafbe
06b1363e
35b5eabc
6101b3bc
11f8033c
16a4023e
2421433e
429186be
b98b883d
90b19ebd
ac4d973d
088b2c3d
4a6ac43d
8696a43c
d71d92bd
f526fbbd
8498003c
56cf0cbe
8ca5393e
00c2bebc
1670edbd
9e32a9bc
8e61d03d
8f8c2d3e
70a2be3d
96ea023d
d3a713bd
b9f40bbb
20e6aabc
c3e86e3d
298cd03d
975fcbbd
a8518abe
07fe9ebb
1c5197bd
67a0173e
cf83e7bd
8293e6bb
8537473d
d986b2bd
73e4fa3d
9f8680bc
5424debb
7931083e
199a54be
2b18793d
8ea1b0bd
2c0908be
3f6023be
a3f7a6bd
4934123d
0b86823e
0fa85c3e
e1afeebb
0f4a023e
8996bebc
a48aa13d
0ba199bd
7e2e9b3d
760cd9bd
4618c2bd
1b03ab3d
6c068d3d
de9a893e
9e9bc83e
0c94803d
42fd15be
1a28cd3d
8fcde23c
f5ad21bc
2e74c2bd
29aba9bd
7723ae3e
6d6b1cbe
70bd82be
c3af54be
21f7073e
c6009d37
8930ddbd
c093043e
2d5ce83d
3c5935be
e08c01be
f112023d
e392d8b8
acc556be
3ab8433d
50e8653c
bc4588bd
93343ebe
4a372f3e
0a910e3e
9932173e
b59120bd
9bcd09be
cb83033e
c4923ebd
b7740abd
c21bd6bd
66853d3d
21e3c93d
f37698bc
473710be
ca064fbe
6e8090bd
451a863e
5d21ed3d
44305f3e
2b15163e
7ab5493d
fdd74f3d
b6c753be
c97c2bbd
12fc68be
089833bd
d5f6043d
3f1eca3d
1b4b14be
30e0083d
ea592e3e
17a4e43e
d4a7abbe
0f56603d
74430f3e
0569103e
8c4b99bd
fa2233be
313839be
0b2f933c
7e37bc3a
079fab3d
59098abd
56a4ecbd
303548be
8498b9bd
615cbe3d
38e80b3e
0a350fbe
0df0aeba
d62d17be
b43925bc
953fb23d
a8e56d3d
bd8f563e
8a2f9bbd
9893753e
e65d663e
a7745fbd
c39f243d
ba2746bd
ca94ebbd
2e24d3bc
42e7f1bd
819865bd
14fd073e
24d837be
50c9583e
be93853e
a4e6c53d
bf3b803c
925ac63a
3bba5fbe
3333f03d
8dd2c1bd
a5618dbe
fc42d53c
a92f65bc
126dd43d
016af2bc
589e453e
bb307e3c
5dfb5a3e
999d033e
a997ee3d
1cb7ab3d
469d55bd
93ca91bc
9f9a013e
3a930a3e
b1585a3d
232918be
990796bd
0b4def3c
7271b1bc
1bbabebd
112a1fbd
292bbf3b
9a18efbc
1b40b9bd
50468a3d
291e9dbc
35605e3c
079f40be
f5cbce3c
b7708dbd
60d1083e
b5256bbc
97a435bd
02c025be
5394d7bd
1fb2363c
006aeebd
8516063d
a922c83d
82bd273e
5df636bd
f9e4163e
69c42ebe
5327e73d
05720a3d
a53a07bd
a40df73d
87ae12be
9806073e
fa30ce3c
a92b57be
a0809fbd
d937c2bd
0a60163e
4113823e
e5be143e
73d9a53c
84213d3e
85cd37be
e6853c3b
2b515f3c
ee91fdbd
d04621be
6fc7403b
e992e43d
f8ed6b3d
16246d3e
8a06953e
8d8b7bbe
c233083e
246a3c3e
534142bc
74da19bd
55e90bbe
f0bb32be
f645963d
1605fbbd
076945be
d5a771be
47879f3d
5762ef3d
ede902be
6052163e
b0193b3e
6a8fb13d
9ae1a13c
18e394be
a3b5a0bc
010d493e
8df8b2bd
376140bd
a3ad433d
fe44893d
8699bdbd
5555933d
35e977be
d19390be
0f658cbd
7d9e02be
b4e7453d
41b7c5be
a73b56be
1d4756be
a665ac3d
1247043e
ac311e3e
027ce739
50babdbe
8c5abbbe
1cafa23d
1a0f51bd
520d54bc
949578bc
0e4b80bd
3254493e
63b880be
6cb5c2bd
819ff13c
3a7c14bd
4da18cbe
ad0206bc
459e34bd
17b0c5bc
4ce0b6be
b769883d
7706103e
1c93c9bd
f4f92fbe
0e3d35be
9712c73c
7f5e793e
f02702bf
352a28bd
f3ca2ebe
652ca53d
735114be
97cdcdbd
96800bbd
c61b36be
e21af83d
1f4e7f3d
a5cd2e3e
9b5436bd
508a353d
52c135be
f0a5543c
65cc7fbd
27c2543d
38f33dbd
e67a88be
9c2ccebe
f1fc49be
1e29e93d
0cfcf0bc
0cdda7bb
331a283e
309e8cbd
cdba3f3e
eb6f3fbe
4f8ba03b
d6facd3d
6e2a8abd
849cbcbd
5ef5203e
1118f33b
08a1043b
2e78a4be
1e3107bf
7d78b8be
067d71bc
a84a18be
d538563d
a7a9543d
98620abe
44dc88be
bff2893d
985767be
863f373e
3de387be
a337113e
ccc3de3d
9862ffbb
dc5e52bd
857e6a3d
27a74b3a
d87108bd
6d7610be
aa02a83e
6aa4cb3d
0d2b2abe
4a15ca3d
0a15b6ba
e06b373e
ac3dbabe
aca1023d
01b29d3c
e85d5b3e
b55a823c
e76906be
4fa133bc
da95343e
3101ea3d
f993503e
ab2d6abd
781e09bd
80c57abd
dff286be
3d8ea8be
bcba093d
917ae63b
cef2383d
5f2364bd
ffcab1be
8ee850be
6ea192bc
56d6213e
1be694bd
b7e9fbbc
263316be
58752fbd
c48be3bd
4b26473e
c47489bd
f6b0d6bd
60f22cbc
db92ee3c
5b561c3e
2ac398bc
21ad90bc
14e160bd
90d4933d
dd55963d
093f303d
a0a10ebd
bb7b263e
957d733d
27291ebe
9047c0bd
22f11ebe
583cce3d
f2770fbe
178755be
2f7e513e
955a62be
46d282be
d5b99e3c
6770b1be
442079bd
0a8be3bd
33aa51bd
f38ed53d
b26fff3d
dfb6883d
3bab033e
5bd157be
fd54003d
e6288fbe
183f10be
8ee0513d
10988c3b
6e03c3bd
08db173e
00db103e
e5ce403e
a47ef3bd
686f273e
fbf7ddbd
aac8b2bd
b956ef3b
6cc62d3e
adbb9ebd
9f648b3e
b9f324be
0f50d8bd
8d468a3d
2233b7bd
02c4cabd
b14a61bc
b36bf63d
08348abd
c7fc99be
8f5f91bd
3c3baf3d
f5faaabe
a840bebd
2cfe69bd
8e11c4bd
548f9cbd
c27a0f3e
299996bd
06b8ee3d
2034a7be
60e986be
6e4fc6bb
6d55333e
c2286bbc
fdf7adbe
81ee6cbe
a55a7a3d
56bb58be
4b5655bd
28ffb2bc
2fe7bb3d
7f1d80be
358908be
5d5c6bbe
47d251be
a42fb7bd
1de123bd
460815bd
2ebfee3d
663984be
9fe2643e
4601e33d
2906643e
45e8cabc
98a1773e
451a823c
b35474bd
d26581bd
38b3d0bd
eee6dfbd
6bd9043e
ee730a3e
6a550dbe
6921cbbc
78a9b13d
769cb8bc
4f5a7f3b
69d6b13d
6adaedbc
f34119be
21560abe
5e17303e
ea14cebd
29b7fcbd
42a2013e
0d5ebabd
a52ae13d
8fc966bd
559a143e
06c3ca3d
3dbfa83d
a0934b3d
4035b2bc
f5157c3d
38a7debd
6bcd5cbe
eee53abd
962636bd
fb12ae3d
ed71993d
435eab3c
74bb683d
f96057be
c1e8203e
12f2cc3c
1f89d6bc
9d98523e
a0472ebe
99f14c3d
c4a9153d
ae29f9bd
78b1dabc
2e4d793d
c59fe8bd
74320a3e
027da1bc
edfe093d
94d3763d
fceb37bc
d069bd3d
c5bf2e3e
c7060a3e
285512bf
6a0524be
d6f9bf3d
ce63223e
f57b2dbb
4cc8a33d
3bd2303d
83904f3e
47e280bd
323f05be
160de23d
17a2da3c
e6952c3c
e556f53d
c5155d3e
866216bd
b7a980bc
e6d520bf
c4f98dbe
1e420b3d
93c122bd
5d83893d
6371893d
c9f8bdbd
572d42bd
dd70d0bd
37af83bd
ebd0033e
775c063e
f64252be
0a28283c
73c77c3c
5fe2293e
0814063e
ad78b4be
798caabe
df8c7f3d
6bdd5cbe
f658cdbd
6bce52be
b3ad04be
9b1e13be
b1fc8b3d
4dd287be
dc7804bd
59ec54be
84bb073e
94dfce3c
53341c3e
fba78ebe
302568be
e91434be
351f4abd
82c5173e
46e7113e
3ebc4b3e
1a8b5a3d
120dac3e
76f692bd
d7343b3d
3b4a073e
b36f063e
c6759cbc
7483b4bd
625827be
0ddd7cbc
d8eb1f3d
6cc8e6bc
6ef7f4bd
bafa5a3e
3dd21cbe
206dc7bb
41aac23d
c95953bc
83244abe
f87c1b3d
57b2423d
119692be
3a9f26be
a5cea3bd
2e03cdbd
2ed23fbe
de253bbc
dc511a3e
a40d923e
e774ac3d
ff051abe
0ae0cfbc
e086c63d
3a4be53d
2c5ea3bd
887cd9bd
94f4b9bc
9365c53c
3ff9543d
4298183e
389eedbc
0b4bf5bd
cb75cdbd
4d6c4f3e
6201f73d
29498a3c
68a5f7bc
7c963f3e
78c3d2bd
913a343d
697b3ebe
c61b1f3d
17870dbe
ef1e0cbe
52a947be
94cb873d
cfd9cb3d
7c7fb13e
b3ee783c
ed2a1bbe
798e1bbe
05af163e
780742bc
32dc0bbe
5f6b1cbe
ce3d293e
6802fb3d
038e06be
97a860be
b8d0de3d
491b203e
8b61cd3d
f457493d
6e2caa3b
3c7d3dbe
a4142cbe
c434d13d
14a18dbe
931d153e
0bb6673e
05be483e
ad69c73d
fdfa333d
976c3fbd
8643483c
3718813e
a022943e
a9b7c6bd
c02a3b3e
842bcf3c
3835b0bd
32511c3d
77d901be
82004abd
0be6313e
1c74153c
aca64fbe
982be6bd
263a553e
119efabc
a5e66e3e
d8080fbd
6cc271bd
8f851b3d
303c4ebc
2e9c6bbb
6ff6fdbd
b63a40be
3cb11ebc
3e981a3d
2d89b2bc
4869bdbe
643c3fbf
b38f8b3c
c8fd0f3e
34ad8bbd
7e6e2bbe
4d2d753d
49b12a3e
8e2cae3d
90aad13d
10ada4be
a352303e
7f7a50bd
40c727bd
ada2823e
63e9973e
76f610be
8092f9be
28e5d1be
6099cebb
bf3c39be
d3328cbd
a5a3173e
df300fbe
7be716be
9a8d193d
d91d31be
e703b1be
bff62bbd
f07a053e
39b406bf
905d42be
88edf7bb
321c4f3c
72ec593d
1eba7bbe
483b0fbe
e46122bc
ec0206bf
5792ecbd
48d88cbc
5dd90a3e
451cacbe
10c38dbe
dbc3dabe
280c0bbf
50d07a3d
30e27b3d
362e80be
12ed1a3e
a441513c
2c661b3c
52ea39be
7b1d0cbe
273fe63d
ab8b1dbe
2be3013d
fcc54c3e
470a433e
cec084bb
e73a81bc
108f1bbe
0f53e5bd
4cc7313e
6ebd45bd
5d25c1bd
bc8e04bd
aaa4a53d
d4e8e6bc
1adf3fbe
6a32143d
a4ce41be
6b7cb3bd
f633b73c
e0e3f2bc
d76d68bd
bb5542bd
9f6b80bd
6767a6be
28d87f3d
490f19be
c81562be
b06b0a3e
dc310c3e
b4937d3d
3153573e
0074013e
251afe3d
41f725be
0d40b83d
6c1cd8bd
05b1423e
b4a2c9ba
ba4c4dbe
d317e33d
1d32823c
fc7e8abe
d59338be
8d3ef9bc
02f364bd
0a7b9fbd
b8d418bc
e18d673d
90ff57be
701023be
9928ec3d
abb996be
6a8f2c3e
247a48bd
c7dd67bd
befda63d
f4d209bd
39bc973d
0805c8be
a2f8dcbe
8b816f3e
49c2b03d
da72833d
72186a3d
112d5e3d
dd9f02be
f135b33d
787b19be
cc4e863e
1db02a3e
bd3cd03d
968156be
8debee3d
d39f01be
2dec8bbd
24dc43be
94faa5bd
5c1205be
c4485e3e
2085673d
93b33abd
a3a6ae3c
2060953d
81bdb3bd
39d8e4bc
f7c932be
130c8b3e
a6bab43e
fab606be
811eeabd
ad820bbe
12ddacbd
ef7fb63b
d9e5e73d
85998cbe
0316943c
b583123d
151c7fbe
71a20abe
db6ce9b9
745e38be
488e643d
4e456bbd
d79c033e
34a2103e
f0fc17be
af9d5abe
af3948bc
e863e33d
ef23663d
a334113e
848abbbc
4712853d
d8d75b3c
6fee0abe
8ce5f43d
f4e1b3bd
49c8d33d
ad782e3e
0787babd
76fa21be
2982a0bd
2627abbd
286fb03c
7dc88cbd
60bc3d3e
9fcda9bc
ae9533be
4c35b1bb
d127c2bd
09ab753d
599745be
4af5d03d
e8cf07be
e0e6053e
8bcd83bb
5174883c
a23300be
747c63be
a0be51be
8a7b233d
9635523a
23bf233e
60cbce3e
ed4e37bd
cd393a3e
a0d6b4bd
64682d3d
afbe763e
1ea4273e
a6e48ebe
0f1e933d
c09d553d
3c1694bd
cbdb77be
9092ab3d
149282bd
fb871a3d
ea66f03d
c5420e3e
68743dbe
bd37e3bd
da44a93d
bbbaa8be
109de7bd
ec9a2abe
de0eed3d
99a1ccbd
d72f0a3d
3756603d
28c9a43e
ef83b73e
cee84cbe
81ab11be
027f60bd
bd4d4e3c
7b7f88bd
8aae8d3d
efd75bbe
79e3acbd
44dca7bc
45bcc3bd
76018cbb
f79011be
ec219f3d
4bd50a3e
ec7a743c
15fd0a3d
939ea63d
4adc05bc
2e344ebe
0fd35e3b
de06ea3d
133128bd
3a8e84bd
f11a94bb
515dad3d
c8c124be
dc5ae23c
bbac1bbe
5afa0dbe
34be43bd
8221c4bd
2cb1053d
49b477bd
8509c8bd
a32b703e
23156cbe
2cf0abbe
ff0a28be
79165a3b
af59debc
a10f60bd
c14a6eba
1dafb8bc
760b873e
dccf813e
666d493d
eaa2dcbd
5b07f73c
1727553e
8636b7bc
084471bd
0abbd43d
c0e9443e
45e0533e
d86d5ebc
6301ddbd
dc0ba5bb
a98e30be
3f9acdbc
68ea183d
7e6ee6bc
a9f399bd
0a3d043b
ba74143e
d7e8de3d
2b348d3c
18fc053e
67c98bbe
72e0b03b
ce68503e
fb062dbe
92fbf0bd
e983a53d
b6f2adbc
dbef913d
35d730bd
95392abe
6798983d
9043763c
14a501be
5d1339be
370447be
0eb3bc3c
bf9cc13e
ff5f64be
ef04d1bc
765e283e
183201be
bbdf84bd
739e39bc
a2b791bd
9d7eb0bd
5933b23d
67104cbe
c92496be
f1014bbc
1762bebd
f459cd3d
8d817e3e
7c3de53d
de83a23c
61d1df3d
3f764fbe
75628fbc
eb4eafbd
052042bd
245ab5bd
b18ee63d
e92e10bb
8c7e06bc
9eae673d
914547bc
f147613d
a5f9d93d
3a998ebd
311990bd
a6f4463e
e2aabb3c
9fc49abe
406f103e
bef901be
2c1e0f3d
39e26bbc
dc60e0bd
51c0f23d
a60a663b
070119bd
f2ce80bb
56fea03d
41b52dbd
0b63acbd
c323d7bd
8814213e
f73891bd
097301be
53af5f3d
bd5c993b
04289b3d
d931cbbc
22ee2a3e
bc530ebd
347d0f3e
d4650bbe
231c393d
72a270bd
64ca7cbc
4c5d77be
2c54903e
b64ba43c
78ef4abe
90bb963d
ba80093b
afbc1a3e
05d7f23c
f62cac3d
49cc8b3c
98ed87be
b68730be
076c803e
d27621bb
ceb19bbd
db265f3e
c13b113e
4e511b3e
5529343e
fe748b3e
7f4514be
898a4ebe
f2abd5bc
aeb8083e
5e78823d
f58bdeb9
9957a53b
328f88be
0214c5bd
23b01abe
78162e3d
c38bbcbc
39a70fbe
b6cc8fbe
f6c93bbc
d3476fbd
dc74c3bd
6621583d
118fdf3d
3cfad1bd
50ca113e
8ad558be
352226be
08362fbe
dbc8be3d
e9d625be
458520be
1cd48f3d
cf9b913e
fe648d3e
341572bd
fd4963bd
854512be
b981d5bd
1f1d18bc
2362d0bd
bf256dbe
70186a3e
c0a0e73d
9746423d
e46edbbd
1c02813d
38e740be
ce1b39be
8bc33bbd
e211833e
71d7b43d
d1fe28be
0de87bbe
f75fd63a
d2b666be
c074bc3d
f203343c
0018d8bb
cb5d32be
9bac1cbe
8897bb3e
025ffa3e
a4d985be
f5472b3e
414ca7bd
6c403cbe
5b8ed63d
7782f9bd
371e87be
7a1a883c
315a9c3c
1ddb7f3c
966e71be
60a8bf3d
9458c3bd
a938113e
0e6aa0bd
22446c3e
5740bc3d
c40cd1bd
341387be
56547bbc
04202e3e
a824993d
3cfc2f3e
7592243e
30b609bd
b8d2543e
65edc0be
3bb203bd
fd6fb9bc
4844933d
e02fff3d
004f583d
555fbebb
0f5e4f3e
80cedc3d
a8de463e
cfa8373e
088ca93d
9bbcf0bd
79dfde3d
eb941f3d
e9d02a3e
8c03833d
8908de3c
0505dd3d
f2f413be
043bc83c
154b71bb
7ecb62be
1f84913d
d68a82bd
911dbe3d
9d762fbe
c5390b3e
e018e2bd
6019b93e
9a5209be
b680d33d
66d63dbe
bdd620be
895c1a3e
4e7e09be
95360abe
3d02193e
1ed89ebd
fe39c7bd
a2a719bd
7f5e053e
5f19c1bd
0a998dbd
3959b33d
4b8e31be
54e101be
99fc953b
e19b133b
7cbd6bbe
