f147103c
670ed53d
39e9c8be
03d62ebe
a15d20be
330eb5be
0af631bb
b426bcbc
4f68a1be
875708bf
dc46f83d
185fb93d
b03e92be
ea32debd
c9274c3e
b236febc
4d876cbe
667cc2bc
8dc0b0be
9029c9bb
5a288ebe
6d1884bd
bd1d433e
eb02b43d
a8a76e3e
11b281be
a90047be
3634143e
a152403e
f7f6debd
17f730be
493a39be
8b3030be
ad174dbd
021a423d
e4654b3c
396b2d3d
e3a713be
3cc47fbd
d948a3be
b44ed53d
e2702cba
64283a3c
39b3fcbc
3ad404bf
4194d5bd
a008b03e
4f8e8d3d
76d75a3c
59fe16bd
a8cf143e
e5b812be
5d1101bc
d4ade33d
1d32c2bd
23d537bd
2671483e
dec0383e
4f2b21be
ebc531be
71c7263e
6131f33d
8a63e5be
78fa883d
