47094b3e
f546cfbd
0b99ebbe
30bd33bd
01fbf5bd
5ab95abe
632e08bd
b76b033e
08131cbe
07edddbe
65f4743d
f4600b3e
185f09be
a43f35bd
1a5c2d3e
385069bd
3e68faba
53f5693e
468e83be
efab013e
e8ba33be
ea59cd3d
d00891bc
3b64fc3d
e301443b
e52a09be
06a19abd
bcc3533e
95ee6b3d
6fc255be
8f4a993d
a0a5a4be
82c864be
7f3c98bc
ead3643d
f4918b3d
75f128be
2cb6e6bd
ebe76fbd
bab33bbe
37b0c7bd
a89a6c3e
4c04023d
30b2333e
10d50abf
6e3102bd
3bdce3bd
9159133e
4a772b3e
99a49dbd
738d453e
cd61a8bd
5c29593e
b3ac693d
dbd474bc
cde76fbd
ada9603e
ddec90bb
e701c63e
101932be
2d94163d
57b2df3d
277980be
c24c1b3e
4c9132be
82f126bc
83a2bb3e
e70d053e
e9200d3d
27a8903e
7b50213d
c4eb233d
6af9233e
40e7f43e
2d070abe
8b6208be
ca47423e
f498c1bd
64259b3c
580e4d3c
4250003e
3a006ebe
d231ba3e
3ca4f4bd
bd51373e
e1c39a3c
f12810be
6f2d1abe
15e5cebd
a364413d
811f023e
92b090bc
0fc1e5bd
6ce4ad3d
a3f6bc3b
2dd3983e
bab3963e
b1e2ab3d
355ee8bd
d5c72ebe
454e7d3e
c58c823b
3ba94f3d
c4688e3e
d2fc833c
cee019be
1509f6bc
a91f4bbe
26080a3f
858d103e
63b19b3e
ecd311bd
747690bd
2e095c3d
541a48bc
539f123e
65bf9dbd
cda96abe
cf4735be
ed1d5d3d
8c6dadbc
c9a95fbd
771ea1be
514c783d
2f60adbd
6b18b4bd
a573893e
f1ee8cbd
