b3ac
8c32
aa33
02b4
cb2f
c430
4231
b2a9
4e2f
a5b2
bdb0
f1b0
2dae
5ba8
722b
fa21
1527
a228
2ab0
df2a
e52f
11b3
85a8
b22e
c0b3
7427
f62d
9f32
0230
d12d
4bb3
5e30
b533
1534
f330
b6b1
9e31
feb2
1b31
cd24
86b0
dbb1
7e1b
1b32
58af
d6b3
acb0
f82d
4baa
8fb3
002c
3030
c433
ad20
87ae
da2c
65b2
c2ac
e6a7
3333
1f27
bca4
96ac
0330
402a
c32b
73b0
37b1
e62c
6fb2
eb30
9c24
2026
dd31
912e
3530
3f2b
59b3
4730
11b4
4234
9db0
ba31
3db0
ff2f
19ac
a8b1
0cb2
61ac
1330
2730
e230
a0b3
f6ab
0132
ddb0
e1b1
3b33
892f
252a
35b0
69b3
0c26
fd2f
1fb3
5926
2231
4432
2931
3330
36af
992b
4531
2db0
8e31
5c14
14b4
7ab2
2ead
acb3
