282f
4eac
678e
5a31
e4aa
e72e
8fb0
a3a6
7bad
cf2d
9228
4a30
5cb1
ab27
5e28
562c
d029
91ac
5d30
6da9
d72f
e1b0
9030
d730
9eaf
a32c
d82c
e42a
3dac
e92b
2c31
6624
2f31
742b
7e2c
a9a7
3f2c
4eae
9525
bea7
9b31
f22e
022e
eea8
efa5
1eac
da2d
0230
1eae
06a4
eaaf
66b2
232a
7e2f
ce2a
bb2e
9f99
7baf
49ae
2ab1
cc2d
34b0
9fb0
2d2f
e929
e42c
6bb0
bdae
21a0
39b0
49ad
40a8
b7ad
2728
2dac
c8ae
a5a9
a528
972a
c02f
2eb0
2630
4930
a7a8
932c
9fae
f32d
60aa
0bad
76b0
afae
84ab
ce2d
51ad
892c
f62c
58b1
322c
0026
ea29
e2b0
1097
a32c
2ca0
322e
7daf
6e28
6b30
5eac
8629
4a29
e5af
962c
fb2c
b9a9
d72e
79a2
cf29
922e
282f
fbab
0a2d
8e29
a62f
d5a0
1b29
852f
c82d
e72c
aa30
0f2c
1eae
b32c
9632
e030
4faf
b0b1
75a9
1b31
532c
d42e
f52a
252b
8030
bda8
cd2d
0831
57ad
a429
5529
a6ae
98a8
942a
2b29
e2a4
5bad
c52f
46a6
7eae
3ea9
a82d
b4a4
c727
802c
8d2e
732b
6fae
2c2d
75ab
592d
be31
392d
7faa
0730
71ad
0a31
4aac
762f
53a3
7031
37b0
7bad
2731
13b0
d5b0
6cac
5eaf
de31
4422
3f30
102f
8396
f621
152f
de2a
e1ad
4930
41ac
e529
0725
90ac
7431
76ac
5029
8129
aab0
6430
e1a4
402f
ffa6
fb2d
53af
172d
77a4
02ae
f430
b327
ca2f
f62c
9830
d3ae
5aae
e4ab
65a9
6fb0
4029
12ac
3ab1
9f2e
35af
2a1e
512c
ceae
d7a5
6dac
a5a2
d1a3
f030
692f
b4aa
a6b0
ee95
c6a9
e9ae
4ead
d91d
e1a1
b82c
a830
52ae
c9b0
0d2f
2d26
6daf
dd2a
b5af
582f
a2af
1030
50a9
4bad
4c2f
3f22
88b0
16ad
03b2
e59e
dbac
ab2d
682a
d5a8
9326
f3a2
7eaf
bfa4
5ead
232f
4330
88a4
a79a
4532
9031
7fa9
fdad
a42f
6629
3526
40b0
4430
d3a7
bcae
a72e
fca1
9bb1
2830
b430
c430
582d
7d2e
85ab
41b0
9ead
a01f
38aa
00b1
b0ae
96a2
df2b
64af
00aa
1626
6c30
35ab
2f2a
bdb0
3f2d
2caa
25b0
ae28
7527
0ba7
e528
4baf
3db0
e82b
c72f
b32c
50a9
ee2c
ae2a
b9ad
88b1
4ca2
a529
2829
9dad
1629
d7ac
92ab
e628
1ead
eea6
0429
5b26
6cae
d7af
752e
adaa
1d2c
3c0f
932f
1bb0
55af
bc29
72ab
01ae
02b0
58af
6d30
8e30
1cb2
7eb1
a8a5
9e27
d8b0
0eae
0525
ddaf
19ac
9c2b
3431
2b29
e12d
5332
9c27
a830
de2f
9229
39ad
57ac
3db0
c92d
5c2d
5130
ef2b
b7ac
d796
de2f
1a2d
7d1d
d92d
e62e
9017
72ab
79b0
1daf
621f
682d
ef25
cc30
1cab
afac
93a6
02b0
3923
7fb0
aaa9
732d
30b0
8fa7
612b
ba2a
642c
2fad
6cb0
dd2e
2d2b
97af
b0b0
1828
2eb0
f8af
aeb0
07b0
f2ad
2b2a
902e
b8af
21b0
e0ad
95ab
512f
a1ad
05a7
9730
542a
e8a2
d1a5
0fae
50b0
9530
0cb0
e12c
1829
af2e
a128
9faf
67ae
ad24
92af
7e30
1f1e
8aaf
0db1
842f
b630
1530
40a9
faae
2dad
12a7
4da9
48b0
2a28
ada6
e4a6
e92e
e630
5930
47a7
302c
78b0
1eaa
0431
e3ad
7fae
63a5
5a30
a51a
0ab1
