b3ac
8c32
aa33
02b4
cb2f
3030
ed33
91a7
2f34
c7ad
d5b0
2dae
e3ac
b09f
282e
fa21
1527
a228
2ab0
df2a
4b31
55b1
ce31
1d34
31ae
3224
c22d
5632
0830
562e
4bb3
5e30
b533
1534
f330
5cb2
0b2c
c3b1
74a9
d2b0
9bb2
69b3
3929
3733
d5ae
d6b3
acb0
f82d
4baa
8fb3
2926
32a9
f632
7cb0
20b1
082e
e0b1
4ba8
9ea0
9433
1f27
bca4
96ac
0330
402a
3fac
3ab4
f5b3
4224
8db1
6031
4518
5922
7031
a92d
3530
3f2b
59b3
4730
11b4
b333
26b1
8732
af2b
542c
b7ad
dfb1
2db0
44ad
d52f
2730
e230
a0b3
f6ab
0132
ddb0
e1b1
ab30
e32d
01b0
35b0
69b3
fd1d
1a30
55b3
5926
2231
4432
2931
3330
36af
992b
4531
2db0
8e31
5c14
14b4
7ab2
2ead
acb3
