9816
a82f
8e17
f2b0
1a24
99b2
90b0
f0aa
cc30
b625
83ae
6f2c
412f
b92c
d730
252e
24b2
14ad
fca9
22ae
0631
4f2f
10ae
f8ae
08ad
6530
e3af
8da2
e42d
6730
0425
202a
1e2f
32a3
c5ae
4eb1
be30
d024
8f2e
2d2e
3725
2629
c1ac
b1b0
d8ab
d530
d430
762e
5dac
3ba5
9ab0
262f
782e
a1ae
19aa
00aa
8d25
61ad
f330
2a2e
fc2b
23ac
0e30
73af
de25
4831
9e2a
ceac
c7af
85af
c5a5
4bab
7b30
6632
34a8
66b1
8fae
1230
449c
abb0
2a2e
ba26
2631
7c2e
ff30
552e
3daa
daaf
7eaf
2231
6130
74af
1130
b9ac
c10b
f2b0
ab2c
4e2e
5430
1c31
ad2f
892f
db28
94b0
cead
f2a8
afac
53ad
e429
fd2a
d2b0
ebb0
0ab0
3cb1
1eb1
c5af
e02c
a0ad
a4b0
e9a7
0824
ef30
27b1
caad
e7af
23b1
48b1
ee25
dc21
792d
6c2e
37a9
2bb0
0a2e
5f2d
5b2d
32b0
7ea2
1eaa
9f92
3aae
bab0
232c
ac26
b6aa
402b
d6a7
5aad
8ea0
7fb0
55a0
f92f
1429
acad
d7a7
e1ae
ec30
35b1
caa1
3e2d
9225
5da2
0fb0
7bb0
aa30
f9a9
21ab
952b
d42d
adad
d2ac
a2b0
082a
e9af
8e2c
e92c
3aae
2430
93a9
a729
dd2c
8730
7bae
1a2f
d7a5
51ab
0031
4229
462f
e2a5
dfaf
9b2c
0aa2
0caa
0030
3ead
1a2e
1625
0a2d
afad
13ab
cba7
a3af
e32b
36b1
87ab
3631
fa9c
ed2f
cbb0
f228
8d2e
9030
dd27
ea2f
33ad
4a2a
d81c
0c2b
5131
72ae
d3b1
28b0
a930
14b1
96a7
83b0
42a8
dd2f
152f
a72d
7f31
b3ae
ebb0
472e
5b2d
749c
eeaf
202d
a02e
9c31
fb2f
0030
21b0
b1ae
cbae
dfa3
64af
be29
df30
7aa6
0d30
0f30
e92f
fe30
e6ac
54ae
7da4
f3a8
8629
662d
712f
0e2e
c3af
0f33
f530
e9ab
ac2e
6831
862b
f41e
eeb0
282d
7ab1
0e2c
cfab
c928
48ad
86a9
52ae
75b0
8d26
32b0
4c30
2a26
4c29
b02d
f42a
