2bb3
0730
3231
e4b0
ee29
3930
7f2d
d4a7
c930
6228
dba6
fa30
5e2e
fa2e
2525
f627
a8af
3129
419d
eb30
3a29
6b32
6c2a
4f28
1227
511c
2a34
6826
9327
43ad
b6ae
3d32
1631
63a9
e8a4
6d22
a2ad
ffaf
5cb1
0925
2ab3
c8b3
8f30
1e31
8a2e
25b2
ecab
0d32
6d9f
f8a8
feb0
00b2
8a9e
1ea4
f9b1
d3ae
ff9c
9329
412e
f7ad
e327
c429
4a2c
c933
82ad
ba99
f4b1
56ab
3f24
e1ab
cfad
3c24
bc19
cc31
ad30
1ab2
792c
c630
5332
38a9
5f2c
9f2d
199e
d82e
06ae
50ab
c2aa
01b4
20ae
f3ae
90ad
7f2a
022e
9da7
9b33
3624
cd2c
d930
ce31
bf1f
75aa
47a4
1daa
1aa7
e031
c931
502e
8c2c
a130
3030
12a5
3b30
e331
e431
efa8
03b1
9ea8
3330
ef29
a12f
be30
9830
5231
5fa8
0228
19a6
c8b5
62b3
b6ac
4ab0
799e
182f
7a2f
161e
d3b2
7f2c
51ac
7fb1
67b0
e2a7
7a2d
a533
7c24
4a32
9b32
8f2a
6032
de21
f12e
2232
0e32
582a
092e
5dac
c62e
6292
a332
d41f
eb2f
69b3
73ad
a232
59ad
70b1
29b1
1d2f
2736
4632
2635
c135
64a6
8c30
d830
45b0
56b2
482c
c4ae
cb1e
9a18
442d
9935
9c33
482f
9e22
67b0
f732
de30
8433
42a6
26aa
2bae
852a
b4a8
17b1
cf2a
fe30
c531
b02c
342f
28b4
f7b0
b2ac
05a1
c4ae
052e
18b3
87b3
1213
75b0
0ca9
ab2c
eaaa
af2a
74ab
1130
12a7
a532
0032
cb99
74ae
9928
63a0
d6b6
32b5
2830
af2c
2031
fd2f
89ad
4ea0
7334
6130
5db6
de32
d329
c39e
82b4
752e
472b
c8ab
7d32
f729
13b1
73ae
edb0
9f2e
4bae
e02e
532f
b221
a52a
b0a4
c3ac
6aa4
d315
1a2d
152f
c0a6
bd26
2633
0734
c023
21b1
882c
a0a5
2132
3924
7e33
2227
35a4
ec32
d52b
bdb0
402f
452f
9733
8131
3c2e
20b0
24b4
d6b4
dd24
4928
34ac
40b2
43a4
d02f
61af
b0b1
a1b3
f1a8
f624
052a
c4ad
2135
7eae
6cac
b1a3
882b
e82d
b0b0
7dad
46b1
bc37
ff37
23a8
0aa9
6f30
7931
8135
21b5
55ae
4031
f02c
cbb1
fca6
c9ae
92a6
0c2e
2012
b82a
d22d
d92c
93ac
b2ad
5014
33b4
37ae
06a8
dc2d
2bb2
e9b0
f027
3bb1
14b6
d8b1
b9b2
ac2c
5629
12b6
eab3
192f
032d
e596
c229
4a2b
0dac
e09c
fb2e
6e31
902f
a132
bb32
462c
b930
0c32
7430
62a4
4aaa
afb1
e929
1b2c
9931
7d2e
e62d
dc30
f82f
ca32
1630
b332
562d
4a9a
5d1d
6eb0
6bae
d1a3
7230
f82f
2634
3624
f4b0
4224
80b3
04b8
56b4
edaf
4930
5ab0
37b3
c22b
cd2c
b82c
e4b1
f7b3
ec32
042d
f4b0
d0b3
ff23
19a8
d6ae
49b0
7bb0
dcb0
cca6
a131
6eb0
64b0
18af
95ab
2030
36ae
bcad
372d
161f
30ac
22a8
82b1
9db2
5b2c
28ae
042e
e928
202c
dea2
c1ab
9aad
8f27
52b0
752c
7532
a39c
29b0
e92a
6c2c
a532
f52d
55af
f9b0
f9ae
0c2b
38aa
892c
c2a5
8fa8
13b1
b6b0
50b0
f5b3
1dae
2111
7022
7d32
4cae
c031
992e
f130
569c
ccb3
2eb0
d134
f627
f8a9
112f
8728
9ea8
6a29
4533
052d
cfa7
0631
5e32
e332
2533
6730
ceaf
be28
349f
2a20
d533
