b030
0fa4
8722
11b0
982f
64b3
ad28
6f30
8831
502c
222e
2731
f2a6
8bad
54b1
a133
6c30
0132
0830
512c
c630
edab
1fac
2d2a
7a32
b432
eb30
dd29
9c2d
cead
be2c
e22a
24b2
bb90
2b23
292c
5faa
1a31
6e27
f528
12b1
33ae
ae95
a629
fd2f
332f
aca5
fbaf
77b3
16a6
2eaf
2331
2432
d12b
f0af
f1a5
9c2e
1b30
61b4
5c2c
4a2f
5533
3f30
382d
952c
42a9
2bb1
7ab2
8028
9133
c5ac
7f2f
3a25
b12a
6bb4
9230
772d
4735
4231
0b2e
eb30
04b5
26b4
83ad
58b6
74b2
46b1
e62f
5133
37b4
10b0
c3b1
41b3
00b3
1ab0
5428
2d9f
3db4
61a9
fc31
7234
04b2
06ae
d1ac
cbb1
5eba
7423
2b2c
1b2c
4c2d
94aa
bfb0
9c2c
012c
3c2c
c3b0
47a8
abab
caa2
89af
66b1
d929
ae1d
8cac
5928
d6a7
c0ae
22a7
22b1
55a0
f92f
1429
1bae
60a8
e9af
5c30
bbb1
a4a5
3e2d
9225
5da2
3bb0
ffb0
e12f
3b2c
12a8
262e
4731
082e
1f2a
6aaf
312f
4cac
c92f
8d26
6bae
9435
aca8
992b
9b26
b531
55b1
5934
e62a
0429
d3b4
1dad
5426
80a8
42b2
322e
c22c
3030
7632
11ab
5733
3327
031c
f0b1
36a8
ff24
41ac
a8a4
56b4
4eb1
bb24
d42a
9130
7eb0
8d2e
0e30
7d30
8b2d
572e
efb2
172e
582f
b230
9f33
ccac
fdb1
6dae
2121
eaac
c818
3bae
0b2c
0131
9230
9830
012f
e7b3
d5b4
aa30
982f
fa2a
27b0
312b
c631
f331
6e31
492f
91af
62a8
eaaa
fcb4
d9b2
5c2f
51ac
ccad
ed34
0234
2431
1732
10ad
68ae
2d2d
dfb8
cf35
4535
1027
a123
18b4
9e34
2a33
11a6
8a30
c430
4f2d
47b5
eab1
842b
29b4
2d2c
6ca5
5732
3027
0fb2
94ad
13ab
f526
7ab2
3432
0228
99ae
f62e
6292
9c23
b5b9
7eac
79a8
faae
aeb0
2ab2
59af
6d30
9bac
a92f
6a31
c5a5
ebb7
20b5
50ad
01b2
982a
c82c
0432
102c
