78b3
c131
d132
3cb0
372b
2b26
a233
b12c
102d
a7b4
3a33
a735
7635
2933
f3b1
1132
2bb4
1427
26b3
32b7
e7b4
22ac
1532
a1b2
c1b3
18af
182e
e6ad
13b8
05b4
e3b1
4032
8aaf
15ad
7830
bcb3
a6a9
55a2
3133
cc2c
51b0
75ae
dc30
2c2c
5e29
6cb1
43b4
63a8
bab0
1135
aa29
012e
8333
5b31
c432
e72e
f4b3
f82d
75b2
bc35
f4b2
c732
672a
be28
72ae
d3b0
c4b5
6dad
cf28
2e33
3c2c
29b4
7423
2534
59b2
bfb0
4031
c92c
ebb0
ffb0
c8b7
b133
d530
46b4
9631
7832
f631
1631
262f
dcaf
3a30
3733
f9ad
0632
ef20
24b6
02b7
90b5
0eb6
a934
ceaa
3129
9c34
64a8
3032
21b4
5aa6
23a9
9534
f432
2434
61b4
aaaf
f2ab
5a2e
d427
acad
1836
462f
1835
