07a9
f4b0
adae
3c2d
f230
c42c
e62a
6932
feb1
1d24
7620
a1b0
4f9a
19a5
96b0
3111
9b21
61b3
32b0
8934
e533
2a30
1029
2430
ceb1
46a6
782c
a4b4
3199
76ac
95ac
abac
4fad
c931
5824
1db3
16a3
a4b1
362e
c3a8
c5ad
5ab5
fe28
f5b1
3724
2531
9731
f7af
67b1
f9ae
1bb4
5f29
4a90
68a9
cf32
0fa0
1931
49a9
87a7
562d
2535
862f
90b2
8b30
d6a2
85ab
4f2a
0230
7330
af30
22b1
1d31
83ac
5aa8
4430
d132
b232
9a2f
be32
18b5
cab1
1129
3ca1
6fa0
432a
a030
ac2f
74b0
482d
fb30
54b0
54b2
0e24
11b0
a9ac
63ae
8fb4
1eb4
9eb2
10b1
24ac
9c31
c02f
5b28
b8a8
a7ac
db2b
41b3
3a2a
faae
2d32
90a6
d025
bf2f
2b33
cc30
40a4
9e30
74b2
d4b2
80ab
ab2c
0131
f3a4
aca8
6bb2
9fb0
6e2e
f331
efab
3e30
49ae
bfb2
fe32
112f
16b2
ee30
10b2
8031
31a7
bd32
8e30
53a9
df2e
d2a9
7b30
47b4
9a2c
83ac
902e
a631
df30
4aab
b931
402c
da30
9128
ed28
f430
7530
cf2b
f0a8
1333
f1ac
b5a8
5629
f4a6
279d
1a30
8028
d332
f830
7daa
aaab
bfb0
4ab5
2731
192a
76ad
df27
61b1
7f28
c1ae
a12c
3a29
1834
4ca7
58ae
59ac
4f2b
8bb0
c3ae
04a0
c32b
f831
711b
d425
6030
19b1
4024
2d21
09a8
2134
eab3
cfaf
3bb0
462c
0cb0
e1ad
8f2a
9715
43a8
b71c
bdae
28b2
1bb3
b1a5
8026
f1a7
5b34
082f
3f31
efb2
982c
3233
c69d
63ab
24ac
6b2d
3033
8cab
74a9
6712
76af
802d
6832
4fb2
2426
20aa
6c31
8e30
9e32
fcad
5631
c6ad
59ae
6e32
99ae
eaaa
211f
b42e
36a7
7332
9831
c12b
7da7
b8ae
fc31
51af
7b25
3935
a7a9
52b0
3230
4c30
9fa4
dca5
3431
8192
7b31
ceaa
80aa
c432
c12b
4b30
ea31
bbad
b7a5
9422
2a99
a7af
982f
7db1
6d30
d8b1
962e
4630
2c37
6ab2
e2b0
c32e
5c27
ccac
ea2d
44b4
762a
422e
c3b0
dfb2
2f2d
d02e
da32
2821
ae30
4eb1
8dac
1b2a
d21a
6fad
81af
59a8
a6ac
e92c
0121
6332
272d
25ab
d631
162f
5531
c72d
8eb0
9530
f92c
8b24
a3ac
96af
3db1
651b
e32a
192e
8fa9
fb2f
a92a
24b3
e19c
6b33
3bb0
61ae
a32f
b225
5030
a0b9
12b2
f734
7631
6f2d
ac24
392d
15ae
52a7
fd24
0d32
af32
1f2c
892c
1930
422a
aaa2
aab8
aaac
dcb0
17a7
0b2d
4027
78aa
dba9
f1af
7fae
6631
e534
e52e
f9af
9409
782d
df2a
5528
0fb2
68a8
bc29
02ad
ddaa
75b4
dd29
20b2
679f
9b31
4628
13b0
7730
db27
a830
1f22
662d
5428
7f2e
e1af
a1a5
989f
792f
40b3
d5ae
b42e
b7ae
b52d
77ad
5ab0
4d29
a6b3
4ea6
6fac
5d31
d9b0
e1ae
2024
302f
07ad
4d30
c8b2
34a3
882a
5332
ac22
b6a9
3729
592c
fcac
35ab
99ad
8227
332e
4431
b6a4
0daf
19af
4c32
db29
e731
15a2
20b1
b4b4
a7a5
54b0
f0a3
dfa9
f92a
d431
cba7
da27
3f34
c233
4d26
a32f
4e31
d6b0
b9a5
7aa1
12b1
3da7
7230
34b0
f3b0
9eac
13af
7d33
6d2c
2232
bab2
392d
7e32
0baf
21a7
da2e
dfab
712d
aaac
d4b0
72b1
e7a6
3a2e
8531
c82c
042d
1a33
4a2d
a42c
a19e
72b0
dca2
cc2e
bbb1
e82e
88af
b9b2
afb1
f123
9730
43af
3933
56a9
1fb3
31ac
772e
49b4
6f2c
1a30
0b32
282d
0f23
7d31
feae
c631
3b25
e930
9a9d
e62d
d3ad
4031
4bb1
21ab
79ab
db32
51b0
6726
4230
4b26
e2a5
75b0
ad2c
f8ad
d21c
f39b
4bad
30a8
bc24
aeb0
c4b0
a927
e930
572f
e4ae
f431
1896
e62e
e02e
662e
76aa
3e2e
db2c
ddb0
f2b1
3b29
a42b
6630
7bad
8cb1
0cad
cdac
eba1
7db5
b631
56a7
98a5
2020
1530
1932
35b4
442c
f6ac
ba2c
6429
232e
2525
91ac
d9af
0520
66b0
cd31
f6a5
6caf
4aa5
832e
6c31
f52d
1728
9da8
6098
57a5
772b
842e
5bae
53b4
f89c
bbac
bd30
3caf
359f
3a2a
94ad
d72f
04a4
f19e
4230
a5b2
c92b
85ad
40b0
1bb1
38ad
9228
1434
e532
759f
1230
f5a5
0c2d
cdac
d92c
c8ae
11ae
582d
682c
4d34
4536
052c
b0b0
692e
1627
0da1
14ae
4dad
7135
e3b0
16b4
a5b2
4030
3a01
eaae
2530
432f
abb1
0cb0
1128
c586
b6b2
1e2a
2f23
42ac
f2b1
7a31
7530
ba30
05a9
4eb0
1c30
f5a9
54a8
b1ae
ec29
4f2e
c4a4
82b0
78b2
84ac
3134
692f
fa32
b130
4e2a
7f2a
9eb2
5ca9
48b3
9da9
2828
512e
a2b0
4728
7331
2537
5db5
032b
7a30
8330
caac
99b1
cab1
9924
e215
5d2d
50ac
65af
42b2
cdad
f32d
5f30
7ab0
7895
b9b0
2aa1
922d
6f2b
b432
d9ac
ad33
3333
fcaa
2529
31aa
5daf
99a6
8faf
2dab
4030
bfb1
c632
2d34
2f2e
0224
3316
feb2
822f
0fae
6bb4
aa26
29a3
a32e
93a7
2d32
f223
d832
1d30
752f
5e2d
adaa
8ea4
0d30
5530
d32a
c1b0
b0ac
7a27
8ca5
f6ad
f9a8
f91d
79a7
caad
522c
e9a4
f322
05b2
7626
6cac
4730
59a3
ada9
2eb1
bdae
b621
73af
3128
412e
3e31
b8a9
b730
76b1
392f
5428
3aa8
b82f
95b0
3830
7226
b9b2
fcac
12ae
b330
1134
a630
2f25
e931
beb1
e419
fb22
edaf
0ab1
061a
252f
5f2b
6933
a834
dcb3
4230
e331
12a2
cfa8
5fb0
96b1
b22c
d8af
2bb2
8db3
fc2c
7b2f
17b0
b330
d931
8c2d
0f25
a7b4
06a5
4832
98ad
03aa
1d2a
4a2c
edad
9b2c
bfb3
85b4
63ac
15b0
2f2a
2eb6
b2b2
b2b2
632d
2230
f230
3c0f
eeb5
dbb5
152d
88aa
a0a2
c5a3
02ac
4b32
06b4
16ae
8d27
a4a8
65b4
30a0
a5a9
2ea6
b7b5
432c
8030
4dae
80b1
aab1
3926
cb33
11b8
41a9
76b1
292d
a3b0
6eae
5ca8
b1b1
c12f
fa2b
7631
b3a9
ac29
aeb1
a522
feab
a62a
f0a9
44b4
71b6
50b2
492f
88a7
3f9d
4131
65ac
fe31
fbb1
041d
702e
51ac
e5ad
0831
991f
2518
24b5
3ab8
c4b5
8ca3
c2b0
b22a
a52a
53b0
47b4
502c
3bb3
ba31
3fb4
8a30
f62e
fb9f
93aa
542b
5d12
44a8
84b0
4035
5d2e
51b1
512e
b195
bb31
d2b5
1528
ee24
db32
1324
33b0
9da1
a531
502f
8532
51ab
49a8
d6ab
38b4
44b5
4e28
341f
c829
21ab
8eb5
87b2
95a4
0f31
a7ac
dfa7
b2b0
7ca9
1caf
3932
4cac
b6ae
68a1
7527
e330
c6a4
85a4
07ab
9f2c
b32c
8229
75a8
3431
9c2b
f1b0
02ae
f8b0
722e
7cb0
acb2
8c32
13b3
17b4
f624
8cb5
c9ab
1caf
8daa
ac2e
fb2f
462c
1d30
bfb2
0328
79b4
82b0
8f2a
651c
18ae
bf30
8730
0632
9caf
3b31
f0ae
96ad
7b1f
6e31
f6ac
5b34
28b1
c3ae
522c
baad
56ae
0aa3
b32f
52ac
d0b4
8bac
7a2d
58b5
f2ad
50ab
21ae
e4ac
7c30
b5ac
762f
3ab5
37b4
329e
9b31
59a3
70b5
67b3
d32b
c6b2
abaa
98a5
df2d
01b4
44b0
5bb3
8fb2
b9ad
1fa9
a8a8
762f
22b4
2733
182f
2033
57a6
bd33
1124
a3ab
0bac
86ae
ffae
2730
5430
6bb0
59a6
8d2d
c5a5
fb1b
8f2d
6fa7
cab0
53b0
8131
71ae
e6af
0d30
d3ad
092f
36ab
a530
562e
462d
5d2a
92a5
e12b
f5ae
e6b2
d7a9
b1a9
712d
cc2c
5b25
462b
bbb2
0731
6826
b4a6
9532
72b1
682a
ad28
c9af
d6a6
ca2b
45af
5230
0ca5
5028
b72b
bfa1
eb2d
7631
5030
93b8
20b1
002e
1331
6c99
1e2d
8729
7d32
07ac
2ab0
102f
d526
6521
ab2f
e932
b3a8
05a4
07b9
70b4
5a28
16a9
4c2c
4c2c
f0ad
11aa
84ae
1dac
1f30
3330
92b2
4121
e623
4f31
3130
a4b5
54b5
fc2b
e7b2
6bae
96b2
25b0
99b0
602c
3fb4
24a8
a7b2
3e30
7726
e230
75b4
41b3
a1b1
51aa
be30
8f30
5e32
d42a
6035
98ac
da29
3a30
3330
e4a4
a4ad
3bb1
e7a3
ff28
36a7
a8af
d832
e7b0
3b9e
152e
9ba2
51b2
dc28
162a
95b4
35b1
1ead
68ae
ffb1
d9a1
d330
9034
642d
d0b0
7fa6
342e
2a2f
1bad
ccae
d0a5
2b26
a82a
c530
6da7
aaaf
6cae
7b32
b82f
5224
bda7
fd31
96ae
a229
f4b1
f928
6cb0
61b0
3db2
3e2c
5f2e
8c35
c723
d9b0
dcb0
b530
10a2
5fb0
e3b0
4a31
d82f
34b0
05b3
f72e
0131
6b2e
4b2a
511d
ecb1
61b1
8a2e
6db4
a930
3e33
4632
3b2e
a029
fba9
4222
0934
a134
36ae
d931
7926
82ad
e328
0fb0
50aa
8f31
ac20
7db2
31af
aa32
d5a7
7733
78a8
8eab
dc28
72a2
5d9b
f0af
02b2
f6a0
d528
94a5
ebb5
fab9
5c24
8030
5dac
5bb1
a92b
5631
712d
8d2e
25b5
8331
84aa
3ea9
1534
bf34
88b0
cdb7
8fb6
759e
cab1
62ac
bd30
7ab0
b7b0
cc28
89b1
88b5
60a9
2c30
36b8
13b2
bf9f
7922
cf2a
deb3
7ab0
13a1
30b8
65af
67a4
5730
61b5
6eb4
d6b6
58b8
d72b
df2b
01b4
d730
8a22
db20
cfb1
61b0
322f
ecb0
0f28
6632
1832
269c
0aa4
dcb0
2baf
8e31
2eaa
09ae
24a8
2d2d
37a7
ffb1
a228
0eb2
9cad
ba25
97a7
43ab
13aa
03ac
33b5
ff2b
c8b0
11b3
5330
6230
ed2b
bb32
0c30
f12f
30b1
c22d
c1ae
1632
4d96
6ab2
192f
1224
54b4
c5b1
caa7
28ab
fcac
c7a0
3c2b
c0b2
19b1
612f
b6b4
6431
44aa
3fab
382d
4fa8
be2c
40b6
e8b6
7c33
862d
1c2c
512b
f12a
15b0
9a2d
ccb0
3234
5631
822e
b4b2
772f
0db0
5fac
1fb2
30ad
29b0
f232
3c2b
d6a9
7525
ab2c
9ead
27a7
96b1
5834
a635
36b0
51af
5cb0
67ad
b41d
3f2f
65b4
a124
9428
f9b3
55b0
4b8f
c3b1
242b
5aab
1d30
8530
c0b0
d5b2
42a2
1b2f
312b
8a30
dca5
292c
df22
57b0
a72f
9fad
9e2e
7431
d4ad
10b1
04ad
59ad
8325
66ac
ee31
4ea5
9db1
8a9d
11ae
ad2b
2db2
882e
3eb0
2f30
1e9c
4424
02b0
1cb3
8eb2
1c29
9212
1e31
7636
baa9
d231
a7ad
6b29
b633
3d31
77b4
992c
ad2a
a1ac
bfb3
5d2d
15ac
d428
832f
7230
ecb1
1aaf
4a2d
46b5
3daf
55b1
682f
65ae
5128
032b
2635
bc35
67b2
8db0
04ab
7222
44ac
6d2c
dfb2
67ad
3fa5
1eae
609c
8db0
f92c
5730
a423
5828
352d
2fa0
72b2
f71a
502f
42a9
24ac
a19c
6b2d
26b1
1327
ddb0
70b0
1eaa
21ae
2e28
beab
40ae
8133
61b3
60b5
40b1
d11a
f3a6
00ab
7293
c5a5
3834
0e34
4b2a
e5ae
b827
a932
baa5
8aab
a62e
2732
9f32
f3a2
e8ae
289d
84b1
6da6
c728
33a7
d0ac
2218
a430
f72e
6a24
3030
5eb4
871d
8332
68b1
88af
2c2d
70a5
8f2c
87a9
52b1
c52c
b223
0db0
c9b1
38b2
e625
0d36
23b3
88a6
4331
0ab0
27ac
cda1
8eac
84ad
922d
61b2
b1b4
58a2
f3ad
6b2e
f433
2a2f
1425
ff2e
7cb2
7ba4
7aad
11aa
abad
342f
8198
34a0
3d2b
3aa2
0a2b
d02e
75ac
81ac
3832
dd25
d6b4
8330
10b0
7928
5fa3
03af
962f
301b
c8a8
069c
082d
6ea9
63ad
b9ae
0931
8aac
0cb0
fd2a
cb1c
d92c
5aa6
5731
73a8
7c30
5bb0
c929
85ab
e6a3
bbb3
8334
2225
57b2
b62c
4c18
d630
9727
612d
5e24
3fb4
84b1
0334
0c99
deac
f932
8a30
db30
a131
5c34
a2b0
74b2
ada6
4630
142c
f48e
2b1d
44b4
29ae
d6b0
7129
e4a5
7db0
7eb4
dea1
7aab
1cae
c12a
fc2e
90ae
8e30
c7b2
31b1
7ab1
f62d
2fb1
04b1
7f2c
8d34
6b34
91ab
1aab
92b0
acae
c1a0
83ae
69b3
5133
3d2f
122a
dbae
082c
07b2
c9b1
dea9
1934
a72d
48b1
dfb3
b316
36b3
e42d
a021
c19e
93b1
e5b0
dd35
d337
2fb4
5a31
3aad
e2b1
b42e
ccaf
39b4
4124
e324
ff23
8bb3
fd2d
1bae
8a30
03ad
6233
e22d
88ae
39b4
dba3
7131
c92c
8031
2531
4ea8
a732
07b6
1ea8
cba5
9a2c
f92f
c22a
f39d
7b32
e62e
3732
bd31
4c2d
86af
f72e
fd28
5731
182c
f026
e82e
a0b0
4226
8a9b
16b3
8c2c
14ac
f12d
7cb1
5a30
11af
c935
4bb0
9c2e
efb1
07b1
d330
4cb0
52b0
c830
f7ac
3aae
cda8
2b30
09ae
6dac
9b2d
8cb1
0fb0
b01c
9d18
5eb3
