8220
a82e
47b6
77b1
03b1
a8b5
9099
e1a5
0bb5
43b8
c22f
cb2d
92b4
f2ae
6132
f2a7
64b3
14a6
86b5
499e
71b4
21ac
1932
a02d
7533
0eb4
38b2
a230
0332
f8ae
88b1
cab1
82b1
69aa
112a
5b22
6b29
9db0
feab
1ab5
aa2e
6491
d121
e6a7
27b8
adae
8035
6c2c
d722
b8a8
a630
96b0
09a0
1d2f
12ae
bfa9
4432
c631
09b1
8eb1
3631
9a2f
2bb7
482c
