5832
7aae
5db7
9ea9
b0af
d6b2
41a8
1b30
e1b0
efb6
a82b
5b30
4bb0
aaa9
6b31
4bab
d397
5033
1cb4
0d30
9eb1
6b2e
88a4
e32f
201a
49b0
d5ac
9e32
5f2b
aeb2
ca2c
25b5
26b3
c2a4
272b
5d2c
48b1
36af
7fab
deb1
3eae
6533
1028
9e31
57b8
12a8
1faf
9b30
5c31
edac
2c32
43ad
c932
4d2b
a7a3
7fab
0533
879c
3036
91b1
b528
fe2e
04b4
da30
95b1
38a1
dd35
2830
6928
8534
0b29
1f29
2031
a737
50b0
43b0
1232
0dae
d924
6822
0330
70b3
d235
a5af
bb31
d624
81b0
d1b0
77ae
0b2a
1130
86a4
2eaf
6f2d
e81d
c734
b634
5f2d
43af
76b1
ea33
141c
7d2a
7334
2024
cfb0
b0a7
59b2
5038
8430
de34
8fa8
84ac
e02a
41a2
9530
eeac
55b3
aab1
e92a
6ba5
fdaa
09b5
c22b
6bad
a1ad
4c34
67ac
